DEPTH = 128;
WIDTH = 16;
ADDRESS_RADIX = HEX;
DATA_RADIX = HEX;
CONTENT BEGIN
  00000000 : FD3A;
  00000001 : 057D;
  00000002 : 10A5;
  00000003 : EEA2;
  00000004 : 0F2D;
  00000005 : EBDB;
  00000006 : 08C4;
  00000007 : EE10;
  00000008 : 0FC8;
  00000009 : 19C4;
  0000000A : 0D96;
  0000000B : F1F3;
  0000000C : FF22;
  0000000D : FF14;
  0000000E : E7ED;
  0000000F : 037E;
  00000010 : 0567;
  00000011 : FF24;
  00000012 : 18E6;
  00000013 : EFA1;
  00000014 : 03A0;
  00000015 : 01AE;
  00000016 : F9F1;
  00000017 : 0E68;
  00000018 : 0FB5;
  00000019 : 0DA7;
  0000001A : F2CE;
  0000001B : 0D9C;
  0000001C : 0E50;
  0000001D : 0A77;
  0000001E : E2FC;
  0000001F : FE71;
  00000020 : EA04;
  00000021 : 0527;
  00000022 : FD00;
  00000023 : F97C;
  00000024 : FF9A;
  00000025 : FEFF;
  00000026 : FD74;
  00000027 : F916;
  00000028 : 0F53;
  00000029 : F13C;
  0000002A : 1752;
  0000002B : FD26;
  0000002C : FF60;
  0000002D : 0080;
  0000002E : 01C1;
  0000002F : 1862;
  00000030 : 08AB;
  00000031 : 0AA2;
  00000032 : EBEE;
  00000033 : CB81;
  00000034 : 0799;
  00000035 : F818;
  00000036 : F4EF;
  00000037 : F42C;
  00000038 : 0EA9;
  00000039 : 1182;
  0000003A : F93F;
  0000003B : FF75;
  0000003C : F88C;
  0000003D : FFB2;
  0000003E : 13D7;
  0000003F : 15A1;
  00000040 : 0969;
  00000041 : 0557;
  00000042 : FD5D;
  00000043 : 03E9;
  00000044 : FDED;
  00000045 : 0DFA;
  00000046 : 0BB3;
  00000047 : 079B;
  00000048 : DAFD;
  00000049 : 1167;
  0000004A : E41C;
  0000004B : 0452;
  0000004C : 00A3;
  0000004D : 0890;
  0000004E : 059E;
  0000004F : 1F02;
  00000050 : E831;
  00000051 : 093D;
  00000052 : 0001;
  00000053 : F3C5;
  00000054 : 12E4;
  00000055 : E72D;
  00000056 : 0E3F;
  00000057 : 2148;
  00000058 : 07DE;
  00000059 : F398;
  0000005A : 0BCA;
  0000005B : F786;
  0000005C : 1404;
  0000005D : 0F6B;
  0000005E : E5E8;
  0000005F : F1DB;
  00000060 : 1932;
  00000061 : F9EF;
  00000062 : F873;
  00000063 : F5C8;
  00000064 : 0912;
  00000065 : 0347;
  00000066 : 01C2;
  00000067 : ECEC;
  00000068 : E0B7;
  00000069 : E684;
  0000006A : F380;
  0000006B : FAF4;
  0000006C : FA7C;
  0000006D : 0806;
  0000006E : FB7A;
  0000006F : FFBA;
  00000070 : 0D05;
  00000071 : 084B;
  00000072 : E4CE;
  00000073 : EDDE;
  00000074 : FC97;
  00000075 : 1888;
  00000076 : 14CD;
  00000077 : E495;
  00000078 : 03AC;
  00000079 : EB00;
  0000007A : 0D67;
  0000007B : 1505;
  0000007C : F6AD;
  0000007D : F4C5;
  0000007E : 096F;
  0000007F : 1BEA;
END;
