-- begin_signature
-- rom_bias
-- end_signature
WIDTH=16;
DEPTH=128;

ADDRESS_RADIX=UNS;
DATA_RADIX=BIN;

CONTENT BEGIN
	127 :	0001101111101010;
	126 :	0000100101101111;
	125 :	1111010011000101;
	124 :	1111011010101101;
	123 :	0001010100000101;
	122 :	0000110101100111;
	121 :	1110101100000000;
	120 :	0000001110101100;
	119 :	1110010010010101;
	118 :	0001010011001101;
	117 :	0001100010001000;
	116 :	1111110010010111;
	115 :	1110110111011110;
	114 :	1110010011001110;
	113 :	0000100001001011;
	112 :	0000110100000101;
	111 :	1111111110111010;
	110 :	1111101101111010;
	109 :	0000100000000110;
	108 :	1111101001111100;
	107 :	1111101011110100;
	106 :	1111001110000000;
	105 :	1110011010000100;
	104 :	1110000010110111;
	103 :	1110110011101100;
	102 :	0000000111000010;
	101 :	0000001101000111;
	100 :	0000100100010010;
	99 :	1111010111001000;
	98 :	1111100001110011;
	97 :	1111100111101111;
	96 :	0001100100110010;
	95 :	1111000111011011;
	94 :	1110010111101000;
	93 :	0000111101101011;
	92 :	0001010000000100;
	91 :	1111011110000110;
	90 :	0000101111001010;
	89 :	1111001110011000;
	88 :	0000011111011110;
	87 :	0010000101001000;
	86 :	0000111000111111;
	85 :	1110011100101101;
	84 :	0001001011100100;
	83 :	1111001111000101;
	82 :	0000000000000001;
	81 :	0000100100111101;
	80 :	1110100000110001;
	79 :	0001111100000010;
	78 :	0000010110011110;
	77 :	0000100010010000;
	76 :	0000000010100011;
	75 :	0000010001010010;
	74 :	1110010000011100;
	73 :	0001000101100111;
	72 :	1101101011111101;
	71 :	0000011110011011;
	70 :	0000101110110011;
	69 :	0000110111111010;
	68 :	1111110111101101;
	67 :	0000001111101001;
	66 :	1111110101011101;
	65 :	0000010101010111;
	64 :	0000100101101001;
	63 :	0001010110100001;
	62 :	0001001111010111;
	61 :	1111111110110010;
	60 :	1111100010001100;
	59 :	1111111101110101;
	58 :	1111100100111111;
	57 :	0001000110000010;
	56 :	0000111010101001;
	55 :	1111010000101100;
	54 :	1111010011101111;
	53 :	1111100000011000;
	52 :	0000011110011001;
	51 :	1100101110000001;
	50 :	1110101111101110;
	49 :	0000101010100010;
	48 :	0000100010101011;
	47 :	0001100001100010;
	46 :	0000000111000001;
	45 :	0000000010000000;
	44 :	1111111101100000;
	43 :	1111110100100110;
	42 :	0001011101010010;
	41 :	1111000100111100;
	40 :	0000111101010011;
	39 :	1111100100010110;
	38 :	1111110101110100;
	37 :	1111111011111111;
	36 :	1111111110011010;
	35 :	1111100101111100;
	34 :	1111110100000000;
	33 :	0000010100100111;
	32 :	1110101000000100;
	31 :	1111111001110001;
	30 :	1110001011111100;
	29 :	0000101001110111;
	28 :	0000111001010000;
	27 :	0000110110011100;
	26 :	1111001011001110;
	25 :	0000110110100111;
	24 :	0000111110110101;
	23 :	0000111001101000;
	22 :	1111100111110001;
	21 :	0000000110101110;
	20 :	0000001110100000;
	19 :	1110111110100001;
	18 :	0001100011100110;
	17 :	1111111100100100;
	16 :	0000010101100111;
	15 :	0000001101111110;
	14 :	1110011111101101;
	13 :	1111111100010100;
	12 :	1111111100100010;
	11 :	1111000111110011;
	10 :	0000110110010110;
	9 :	0001100111000100;
	8 :	0000111111001000;
	7 :	1110111000010000;
	6 :	0000100011000100;
	5 :	1110101111011011;
	4 :	0000111100101101;
	3 :	1110111010100010;
	2 :	0001000010100101;
	1 :	0000010101111101;
	0 :	1111110100111010;
END;
